{
  "char2id": {
    "<blank>": 0,
    "<pad>": 1,
    "<unk>": 2,
    "<space>": 3,
    "!": 4,
    ".": 5,
    "?": 6,
    "अ": 7,
    "अँ": 8,
    "अं": 9,
    "अो": 10,
    "आ": 11,
    "आँ": 12,
    "आं": 13,
    "इ": 14,
    "इँ": 15,
    "इं": 16,
    "इ्": 17,
    "ई": 18,
    "ईँ": 19,
    "ईँँ": 20,
    "ईँं": 21,
    "ईं": 22,
    "उ": 23,
    "उँ": 24,
    "उँँ": 25,
    "ऊ": 26,
    "ऊँ": 27,
    "ऋ": 28,
    "ए": 29,
    "एँ": 30,
    "ऐ": 31,
    "ऐँ": 32,
    "ओ": 33,
    "औ": 34,
    "औँ": 35,
    "औं": 36,
    "क": 37,
    "कँ": 38,
    "कं": 39,
    "क़ु": 40,
    "का": 41,
    "काँ": 42,
    "कां": 43,
    "काः": 44,
    "कि": 45,
    "किँ": 46,
    "किं": 47,
    "की": 48,
    "कु": 49,
    "कुँ": 50,
    "कु्": 51,
    "कू": 52,
    "कूँ": 53,
    "कृ": 54,
    "के": 55,
    "केँ": 56,
    "कै": 57,
    "कॊ": 58,
    "को": 59,
    "कों": 60,
    "कौ": 61,
    "कौँ": 62,
    "कौं": 63,
    "क्": 64,
    "ख": 65,
    "खँ": 66,
    "ख़ा": 67,
    "खा": 68,
    "खाँ": 69,
    "खि": 70,
    "खिँ": 71,
    "खिे": 72,
    "खी": 73,
    "खु": 74,
    "खुँ": 75,
    "खू": 76,
    "खे": 77,
    "खेँ": 78,
    "खै": 79,
    "खैँ": 80,
    "खैं": 81,
    "खो": 82,
    "खोँ": 83,
    "खों": 84,
    "खौ": 85,
    "खौँ": 86,
    "खौं": 87,
    "ख्": 88,
    "ख॑": 89,
    "ग": 90,
    "गँ": 91,
    "गं": 92,
    "ग़": 93,
    "गा": 94,
    "गाँ": 95,
    "गां": 96,
    "गि": 97,
    "गिँ": 98,
    "गिं": 99,
    "गी": 100,
    "गु": 101,
    "गुँ": 102,
    "गू": 103,
    "गृ": 104,
    "गे": 105,
    "गेँ": 106,
    "गै": 107,
    "गैँ": 108,
    "गैं": 109,
    "गो": 110,
    "गों": 111,
    "गौ": 112,
    "गौँ": 113,
    "गौं": 114,
    "ग्": 115,
    "घ": 116,
    "घः": 117,
    "घा": 118,
    "घाँ": 119,
    "घि": 120,
    "घी": 121,
    "घु": 122,
    "घुँ": 123,
    "घू": 124,
    "घृ": 125,
    "घे": 126,
    "घै": 127,
    "घो": 128,
    "घौ": 129,
    "घौं": 130,
    "घ्": 131,
    "ङ": 132,
    "ङा": 133,
    "ङि": 134,
    "ङी": 135,
    "ङे": 136,
    "ङ्": 137,
    "च": 138,
    "चँ": 139,
    "चं": 140,
    "चा": 141,
    "चाँ": 142,
    "चां": 143,
    "चि": 144,
    "चिं": 145,
    "ची": 146,
    "चु": 147,
    "चुँ": 148,
    "चू": 149,
    "चे": 150,
    "चै": 151,
    "चैँ": 152,
    "चो": 153,
    "चौ": 154,
    "चौँ": 155,
    "चौं": 156,
    "च्": 157,
    "छ": 158,
    "छँ": 159,
    "छं": 160,
    "छा": 161,
    "छाँ": 162,
    "छि": 163,
    "छी": 164,
    "छु": 165,
    "छुँ": 166,
    "छे": 167,
    "छें": 168,
    "छै": 169,
    "छैँ": 170,
    "छो": 171,
    "छौ": 172,
    "छौँ": 173,
    "छौं": 174,
    "छ्": 175,
    "ज": 176,
    "जं": 177,
    "जा": 178,
    "जाँ": 179,
    "जि": 180,
    "जिं": 181,
    "जी": 182,
    "जु": 183,
    "जुं": 184,
    "जु़": 185,
    "जू": 186,
    "जे": 187,
    "जेँ": 188,
    "जें": 189,
    "जै": 190,
    "जो": 191,
    "जों": 192,
    "जौ": 193,
    "जौँ": 194,
    "ज्": 195,
    "झ": 196,
    "झँ": 197,
    "झा": 198,
    "झाँ": 199,
    "झि": 200,
    "झिँ": 201,
    "झी": 202,
    "झीँ": 203,
    "झु": 204,
    "झुं": 205,
    "झे": 206,
    "झेँ": 207,
    "झै": 208,
    "झैँ": 209,
    "झैं": 210,
    "झो": 211,
    "झौ": 212,
    "झ्": 213,
    "ञ": 214,
    "ञा": 215,
    "ञि": 216,
    "ञी": 217,
    "ञे": 218,
    "ञ्": 219,
    "ट": 220,
    "टं": 221,
    "टा": 222,
    "टाँ": 223,
    "टां": 224,
    "टि": 225,
    "टिँ": 226,
    "टि्": 227,
    "टी": 228,
    "टु": 229,
    "टुँ": 230,
    "टू": 231,
    "टे": 232,
    "टेँ": 233,
    "टै": 234,
    "टैं": 235,
    "टो": 236,
    "टौ": 237,
    "टौँ": 238,
    "टौं": 239,
    "ट्": 240,
    "ठ": 241,
    "ठा": 242,
    "ठाँ": 243,
    "ठि": 244,
    "ठिँ": 245,
    "ठी": 246,
    "ठु": 247,
    "ठुँ": 248,
    "ठू": 249,
    "ठे": 250,
    "ठै": 251,
    "ठो": 252,
    "ठौ": 253,
    "ठौँ": 254,
    "ठौं": 255,
    "ठ्": 256,
    "ड": 257,
    "डँ": 258,
    "डं": 259,
    "ड़": 260,
    "ड़ि": 261,
    "ड़ी": 262,
    "ड़े": 263,
    "ड़्": 264,
    "डा": 265,
    "डाँ": 266,
    "डि": 267,
    "डिँ": 268,
    "डी": 269,
    "डु": 270,
    "डुँ": 271,
    "डू": 272,
    "डे": 273,
    "डेँ": 274,
    "डै": 275,
    "डो": 276,
    "डौ": 277,
    "डौँ": 278,
    "डौँं": 279,
    "डौं": 280,
    "ड्": 281,
    "ढ": 282,
    "ढ़्": 283,
    "ढा": 284,
    "ढाँ": 285,
    "ढि": 286,
    "ढिँ": 287,
    "ढी": 288,
    "ढु": 289,
    "ढुँ": 290,
    "ढु्": 291,
    "ढे": 292,
    "ढेँ": 293,
    "ढै": 294,
    "ढो": 295,
    "ढों": 296,
    "ढौ": 297,
    "ढौँ": 298,
    "ढ्": 299,
    "ण": 300,
    "णा": 301,
    "णि": 302,
    "णी": 303,
    "णु": 304,
    "णे": 305,
    "णो": 306,
    "णों": 307,
    "ण्": 308,
    "त": 309,
    "तँ": 310,
    "तं": 311,
    "तः": 312,
    "ता": 313,
    "ताँ": 314,
    "ति": 315,
    "ती": 316,
    "तु": 317,
    "तू": 318,
    "तृ": 319,
    "ते": 320,
    "तें": 321,
    "तै": 322,
    "तो": 323,
    "तों": 324,
    "तौ": 325,
    "तौँ": 326,
    "तौं": 327,
    "त्": 328,
    "थ": 329,
    "था": 330,
    "थाँ": 331,
    "थाः": 332,
    "थि": 333,
    "थी": 334,
    "थु": 335,
    "थू": 336,
    "थे": 337,
    "थेँ": 338,
    "थें": 339,
    "थै": 340,
    "थो": 341,
    "थौ": 342,
    "थ्": 343,
    "थ्ा": 344,
    "द": 345,
    "दा": 346,
    "दाँ": 347,
    "दां": 348,
    "दि": 349,
    "दिँ": 350,
    "दिं": 351,
    "दिे": 352,
    "दी": 353,
    "दु": 354,
    "दुः": 355,
    "दू": 356,
    "दृ": 357,
    "दे": 358,
    "दें": 359,
    "दै": 360,
    "दैँ": 361,
    "दैं": 362,
    "दैा": 363,
    "दो": 364,
    "दौ": 365,
    "दौं": 366,
    "द्": 367,
    "ध": 368,
    "धा": 369,
    "धि": 370,
    "धी": 371,
    "धु": 372,
    "धुँ": 373,
    "धु्": 374,
    "धू": 375,
    "धृ": 376,
    "धे": 377,
    "धै": 378,
    "धैँ": 379,
    "धैं": 380,
    "धो": 381,
    "धौ": 382,
    "धौँ": 383,
    "धौं": 384,
    "ध्": 385,
    "न": 386,
    "नँ": 387,
    "नं": 388,
    "नः": 389,
    "ना": 390,
    "नां": 391,
    "नि": 392,
    "निँ": 393,
    "निं": 394,
    "नी": 395,
    "नु": 396,
    "नुँ": 397,
    "नु्": 398,
    "नू": 399,
    "नृ": 400,
    "ने": 401,
    "नेँ": 402,
    "नै": 403,
    "नैँ": 404,
    "नैं": 405,
    "नॉ": 406,
    "नो": 407,
    "नौ": 408,
    "नौँ": 409,
    "नौं": 410,
    "न्": 411,
    "प": 412,
    "पँ": 413,
    "पं": 414,
    "पा": 415,
    "पाँ": 416,
    "पि": 417,
    "पिँ": 418,
    "पिं": 419,
    "पी": 420,
    "पीँ": 421,
    "पु": 422,
    "पुँ": 423,
    "पुं": 424,
    "पु्": 425,
    "पू": 426,
    "पूँ": 427,
    "पू्": 428,
    "पृ": 429,
    "पे": 430,
    "पै": 431,
    "पैँ": 432,
    "पैा": 433,
    "पो": 434,
    "पों": 435,
    "पौ": 436,
    "पौँ": 437,
    "प्": 438,
    "फ": 439,
    "फं": 440,
    "फा": 441,
    "फाँ": 442,
    "फि": 443,
    "फिँ": 444,
    "फि्": 445,
    "फी": 446,
    "फु": 447,
    "फुं": 448,
    "फू": 449,
    "फे": 450,
    "फै": 451,
    "फैँ": 452,
    "फैं": 453,
    "फो": 454,
    "फौ": 455,
    "फ्": 456,
    "ब": 457,
    "बँ": 458,
    "बं": 459,
    "बा": 460,
    "बाँ": 461,
    "बि": 462,
    "बिँ": 463,
    "बिं": 464,
    "बी": 465,
    "बु": 466,
    "बुँ": 467,
    "बु्": 468,
    "बू": 469,
    "बृ": 470,
    "बे": 471,
    "बेँ": 472,
    "बै": 473,
    "बैँ": 474,
    "बैं": 475,
    "बो": 476,
    "बौ": 477,
    "बौँ": 478,
    "बौं": 479,
    "ब्": 480,
    "भ": 481,
    "भँ": 482,
    "भं": 483,
    "भा": 484,
    "भाँ": 485,
    "भि": 486,
    "भिँ": 487,
    "भी": 488,
    "भु": 489,
    "भुँ": 490,
    "भु्": 491,
    "भू": 492,
    "भृ": 493,
    "भे": 494,
    "भै": 495,
    "भैँ": 496,
    "भैं": 497,
    "भो": 498,
    "भौ": 499,
    "भौँ": 500,
    "भ्": 501,
    "म": 502,
    "मँ": 503,
    "मं": 504,
    "म़": 505,
    "मा": 506,
    "माँ": 507,
    "मां": 508,
    "माो": 509,
    "मि": 510,
    "मिँ": 511,
    "मी": 512,
    "मु": 513,
    "मू": 514,
    "मृ": 515,
    "मे": 516,
    "मेँ": 517,
    "मै": 518,
    "मैँ": 519,
    "मो": 520,
    "मौ": 521,
    "म्": 522,
    "य": 523,
    "यं": 524,
    "यः": 525,
    "य़": 526,
    "या": 527,
    "याँ": 528,
    "यां": 529,
    "यि": 530,
    "यी": 531,
    "यु": 532,
    "युँ": 533,
    "युं": 534,
    "यू": 535,
    "यृ": 536,
    "ये": 537,
    "यै": 538,
    "यैँ": 539,
    "यो": 540,
    "यों": 541,
    "योैँ": 542,
    "यौ": 543,
    "यौँ": 544,
    "यौं": 545,
    "य्": 546,
    "र": 547,
    "रँ": 548,
    "रं": 549,
    "रा": 550,
    "राँ": 551,
    "रां": 552,
    "राः": 553,
    "रि": 554,
    "रिँ": 555,
    "रिं": 556,
    "री": 557,
    "रु": 558,
    "रुँ": 559,
    "रू": 560,
    "रृ": 561,
    "रृं": 562,
    "रे": 563,
    "रेँ": 564,
    "रें": 565,
    "रै": 566,
    "रैँ": 567,
    "रैं": 568,
    "रो": 569,
    "रौ": 570,
    "रौँ": 571,
    "रौं": 572,
    "र्": 573,
    "ऱ्": 574,
    "ल": 575,
    "लं": 576,
    "ला": 577,
    "लाँ": 578,
    "लि": 579,
    "लिँ": 580,
    "लिं": 581,
    "लिे": 582,
    "ली": 583,
    "लु": 584,
    "लुँ": 585,
    "लू": 586,
    "ले": 587,
    "लेँ": 588,
    "लै": 589,
    "लैँ": 590,
    "लॉ": 591,
    "लो": 592,
    "लौ": 593,
    "लौँ": 594,
    "ल्": 595,
    "व": 596,
    "वं": 597,
    "वः": 598,
    "वा": 599,
    "वाँ": 600,
    "वां": 601,
    "वि": 602,
    "विँ": 603,
    "विे": 604,
    "वी": 605,
    "वु": 606,
    "वू": 607,
    "वृ": 608,
    "वे": 609,
    "वै": 610,
    "वैँ": 611,
    "वो": 612,
    "वौँ": 613,
    "व्": 614,
    "श": 615,
    "शँ": 616,
    "शं": 617,
    "शः": 618,
    "शा": 619,
    "शि": 620,
    "शिं": 621,
    "शी": 622,
    "शु": 623,
    "शू": 624,
    "शृ": 625,
    "शृं": 626,
    "शे": 627,
    "शै": 628,
    "शैँ": 629,
    "शैं": 630,
    "शो": 631,
    "शौ": 632,
    "शौँ": 633,
    "शौं": 634,
    "श्": 635,
    "ष": 636,
    "षा": 637,
    "षां": 638,
    "षि": 639,
    "षी": 640,
    "षु": 641,
    "षे": 642,
    "षै": 643,
    "षो": 644,
    "षौ": 645,
    "षौँ": 646,
    "षौं": 647,
    "ष्": 648,
    "स": 649,
    "सँ": 650,
    "सं": 651,
    "सा": 652,
    "साँ": 653,
    "सां": 654,
    "सा्": 655,
    "सि": 656,
    "सिँ": 657,
    "सिं": 658,
    "सी": 659,
    "सु": 660,
    "सुँ": 661,
    "सु्": 662,
    "सू": 663,
    "सृ": 664,
    "से": 665,
    "सेँ": 666,
    "सें": 667,
    "सेे": 668,
    "सै": 669,
    "सैँ": 670,
    "सैाँ": 671,
    "सो": 672,
    "सों": 673,
    "सौ": 674,
    "सौँ": 675,
    "सौं": 676,
    "स्": 677,
    "ह": 678,
    "हँ": 679,
    "हं": 680,
    "हा": 681,
    "हाँ": 682,
    "हां": 683,
    "हाे": 684,
    "हि": 685,
    "हिँ": 686,
    "हिं": 687,
    "ही": 688,
    "हीँ": 689,
    "हीं": 690,
    "हींँ": 691,
    "हु": 692,
    "हुँ": 693,
    "हुु": 694,
    "हु्": 695,
    "हू": 696,
    "हूँ": 697,
    "हृ": 698,
    "हे": 699,
    "हेँ": 700,
    "हें": 701,
    "है": 702,
    "हो": 703,
    "हों": 704,
    "हौ": 705,
    "हौँ": 706,
    "हौं": 707,
    "ह्": 708,
    "ॐ": 709,
    "ॠ": 710,
    "।": 711,
    "०": 712,
    "१": 713,
    "२": 714,
    "३": 715,
    "४": 716,
    "५": 717,
    "६": 718,
    "७": 719,
    "८": 720,
    "९": 721,
    "॰": 722
  },
  "id2char": {
    "0": "<blank>",
    "1": "<pad>",
    "2": "<unk>",
    "3": "<space>",
    "4": "!",
    "5": ".",
    "6": "?",
    "7": "अ",
    "8": "अँ",
    "9": "अं",
    "10": "अो",
    "11": "आ",
    "12": "आँ",
    "13": "आं",
    "14": "इ",
    "15": "इँ",
    "16": "इं",
    "17": "इ्",
    "18": "ई",
    "19": "ईँ",
    "20": "ईँँ",
    "21": "ईँं",
    "22": "ईं",
    "23": "उ",
    "24": "उँ",
    "25": "उँँ",
    "26": "ऊ",
    "27": "ऊँ",
    "28": "ऋ",
    "29": "ए",
    "30": "एँ",
    "31": "ऐ",
    "32": "ऐँ",
    "33": "ओ",
    "34": "औ",
    "35": "औँ",
    "36": "औं",
    "37": "क",
    "38": "कँ",
    "39": "कं",
    "40": "क़ु",
    "41": "का",
    "42": "काँ",
    "43": "कां",
    "44": "काः",
    "45": "कि",
    "46": "किँ",
    "47": "किं",
    "48": "की",
    "49": "कु",
    "50": "कुँ",
    "51": "कु्",
    "52": "कू",
    "53": "कूँ",
    "54": "कृ",
    "55": "के",
    "56": "केँ",
    "57": "कै",
    "58": "कॊ",
    "59": "को",
    "60": "कों",
    "61": "कौ",
    "62": "कौँ",
    "63": "कौं",
    "64": "क्",
    "65": "ख",
    "66": "खँ",
    "67": "ख़ा",
    "68": "खा",
    "69": "खाँ",
    "70": "खि",
    "71": "खिँ",
    "72": "खिे",
    "73": "खी",
    "74": "खु",
    "75": "खुँ",
    "76": "खू",
    "77": "खे",
    "78": "खेँ",
    "79": "खै",
    "80": "खैँ",
    "81": "खैं",
    "82": "खो",
    "83": "खोँ",
    "84": "खों",
    "85": "खौ",
    "86": "खौँ",
    "87": "खौं",
    "88": "ख्",
    "89": "ख॑",
    "90": "ग",
    "91": "गँ",
    "92": "गं",
    "93": "ग़",
    "94": "गा",
    "95": "गाँ",
    "96": "गां",
    "97": "गि",
    "98": "गिँ",
    "99": "गिं",
    "100": "गी",
    "101": "गु",
    "102": "गुँ",
    "103": "गू",
    "104": "गृ",
    "105": "गे",
    "106": "गेँ",
    "107": "गै",
    "108": "गैँ",
    "109": "गैं",
    "110": "गो",
    "111": "गों",
    "112": "गौ",
    "113": "गौँ",
    "114": "गौं",
    "115": "ग्",
    "116": "घ",
    "117": "घः",
    "118": "घा",
    "119": "घाँ",
    "120": "घि",
    "121": "घी",
    "122": "घु",
    "123": "घुँ",
    "124": "घू",
    "125": "घृ",
    "126": "घे",
    "127": "घै",
    "128": "घो",
    "129": "घौ",
    "130": "घौं",
    "131": "घ्",
    "132": "ङ",
    "133": "ङा",
    "134": "ङि",
    "135": "ङी",
    "136": "ङे",
    "137": "ङ्",
    "138": "च",
    "139": "चँ",
    "140": "चं",
    "141": "चा",
    "142": "चाँ",
    "143": "चां",
    "144": "चि",
    "145": "चिं",
    "146": "ची",
    "147": "चु",
    "148": "चुँ",
    "149": "चू",
    "150": "चे",
    "151": "चै",
    "152": "चैँ",
    "153": "चो",
    "154": "चौ",
    "155": "चौँ",
    "156": "चौं",
    "157": "च्",
    "158": "छ",
    "159": "छँ",
    "160": "छं",
    "161": "छा",
    "162": "छाँ",
    "163": "छि",
    "164": "छी",
    "165": "छु",
    "166": "छुँ",
    "167": "छे",
    "168": "छें",
    "169": "छै",
    "170": "छैँ",
    "171": "छो",
    "172": "छौ",
    "173": "छौँ",
    "174": "छौं",
    "175": "छ्",
    "176": "ज",
    "177": "जं",
    "178": "जा",
    "179": "जाँ",
    "180": "जि",
    "181": "जिं",
    "182": "जी",
    "183": "जु",
    "184": "जुं",
    "185": "जु़",
    "186": "जू",
    "187": "जे",
    "188": "जेँ",
    "189": "जें",
    "190": "जै",
    "191": "जो",
    "192": "जों",
    "193": "जौ",
    "194": "जौँ",
    "195": "ज्",
    "196": "झ",
    "197": "झँ",
    "198": "झा",
    "199": "झाँ",
    "200": "झि",
    "201": "झिँ",
    "202": "झी",
    "203": "झीँ",
    "204": "झु",
    "205": "झुं",
    "206": "झे",
    "207": "झेँ",
    "208": "झै",
    "209": "झैँ",
    "210": "झैं",
    "211": "झो",
    "212": "झौ",
    "213": "झ्",
    "214": "ञ",
    "215": "ञा",
    "216": "ञि",
    "217": "ञी",
    "218": "ञे",
    "219": "ञ्",
    "220": "ट",
    "221": "टं",
    "222": "टा",
    "223": "टाँ",
    "224": "टां",
    "225": "टि",
    "226": "टिँ",
    "227": "टि्",
    "228": "टी",
    "229": "टु",
    "230": "टुँ",
    "231": "टू",
    "232": "टे",
    "233": "टेँ",
    "234": "टै",
    "235": "टैं",
    "236": "टो",
    "237": "टौ",
    "238": "टौँ",
    "239": "टौं",
    "240": "ट्",
    "241": "ठ",
    "242": "ठा",
    "243": "ठाँ",
    "244": "ठि",
    "245": "ठिँ",
    "246": "ठी",
    "247": "ठु",
    "248": "ठुँ",
    "249": "ठू",
    "250": "ठे",
    "251": "ठै",
    "252": "ठो",
    "253": "ठौ",
    "254": "ठौँ",
    "255": "ठौं",
    "256": "ठ्",
    "257": "ड",
    "258": "डँ",
    "259": "डं",
    "260": "ड़",
    "261": "ड़ि",
    "262": "ड़ी",
    "263": "ड़े",
    "264": "ड़्",
    "265": "डा",
    "266": "डाँ",
    "267": "डि",
    "268": "डिँ",
    "269": "डी",
    "270": "डु",
    "271": "डुँ",
    "272": "डू",
    "273": "डे",
    "274": "डेँ",
    "275": "डै",
    "276": "डो",
    "277": "डौ",
    "278": "डौँ",
    "279": "डौँं",
    "280": "डौं",
    "281": "ड्",
    "282": "ढ",
    "283": "ढ़्",
    "284": "ढा",
    "285": "ढाँ",
    "286": "ढि",
    "287": "ढिँ",
    "288": "ढी",
    "289": "ढु",
    "290": "ढुँ",
    "291": "ढु्",
    "292": "ढे",
    "293": "ढेँ",
    "294": "ढै",
    "295": "ढो",
    "296": "ढों",
    "297": "ढौ",
    "298": "ढौँ",
    "299": "ढ्",
    "300": "ण",
    "301": "णा",
    "302": "णि",
    "303": "णी",
    "304": "णु",
    "305": "णे",
    "306": "णो",
    "307": "णों",
    "308": "ण्",
    "309": "त",
    "310": "तँ",
    "311": "तं",
    "312": "तः",
    "313": "ता",
    "314": "ताँ",
    "315": "ति",
    "316": "ती",
    "317": "तु",
    "318": "तू",
    "319": "तृ",
    "320": "ते",
    "321": "तें",
    "322": "तै",
    "323": "तो",
    "324": "तों",
    "325": "तौ",
    "326": "तौँ",
    "327": "तौं",
    "328": "त्",
    "329": "थ",
    "330": "था",
    "331": "थाँ",
    "332": "थाः",
    "333": "थि",
    "334": "थी",
    "335": "थु",
    "336": "थू",
    "337": "थे",
    "338": "थेँ",
    "339": "थें",
    "340": "थै",
    "341": "थो",
    "342": "थौ",
    "343": "थ्",
    "344": "थ्ा",
    "345": "द",
    "346": "दा",
    "347": "दाँ",
    "348": "दां",
    "349": "दि",
    "350": "दिँ",
    "351": "दिं",
    "352": "दिे",
    "353": "दी",
    "354": "दु",
    "355": "दुः",
    "356": "दू",
    "357": "दृ",
    "358": "दे",
    "359": "दें",
    "360": "दै",
    "361": "दैँ",
    "362": "दैं",
    "363": "दैा",
    "364": "दो",
    "365": "दौ",
    "366": "दौं",
    "367": "द्",
    "368": "ध",
    "369": "धा",
    "370": "धि",
    "371": "धी",
    "372": "धु",
    "373": "धुँ",
    "374": "धु्",
    "375": "धू",
    "376": "धृ",
    "377": "धे",
    "378": "धै",
    "379": "धैँ",
    "380": "धैं",
    "381": "धो",
    "382": "धौ",
    "383": "धौँ",
    "384": "धौं",
    "385": "ध्",
    "386": "न",
    "387": "नँ",
    "388": "नं",
    "389": "नः",
    "390": "ना",
    "391": "नां",
    "392": "नि",
    "393": "निँ",
    "394": "निं",
    "395": "नी",
    "396": "नु",
    "397": "नुँ",
    "398": "नु्",
    "399": "नू",
    "400": "नृ",
    "401": "ने",
    "402": "नेँ",
    "403": "नै",
    "404": "नैँ",
    "405": "नैं",
    "406": "नॉ",
    "407": "नो",
    "408": "नौ",
    "409": "नौँ",
    "410": "नौं",
    "411": "न्",
    "412": "प",
    "413": "पँ",
    "414": "पं",
    "415": "पा",
    "416": "पाँ",
    "417": "पि",
    "418": "पिँ",
    "419": "पिं",
    "420": "पी",
    "421": "पीँ",
    "422": "पु",
    "423": "पुँ",
    "424": "पुं",
    "425": "पु्",
    "426": "पू",
    "427": "पूँ",
    "428": "पू्",
    "429": "पृ",
    "430": "पे",
    "431": "पै",
    "432": "पैँ",
    "433": "पैा",
    "434": "पो",
    "435": "पों",
    "436": "पौ",
    "437": "पौँ",
    "438": "प्",
    "439": "फ",
    "440": "फं",
    "441": "फा",
    "442": "फाँ",
    "443": "फि",
    "444": "फिँ",
    "445": "फि्",
    "446": "फी",
    "447": "फु",
    "448": "फुं",
    "449": "फू",
    "450": "फे",
    "451": "फै",
    "452": "फैँ",
    "453": "फैं",
    "454": "फो",
    "455": "फौ",
    "456": "फ्",
    "457": "ब",
    "458": "बँ",
    "459": "बं",
    "460": "बा",
    "461": "बाँ",
    "462": "बि",
    "463": "बिँ",
    "464": "बिं",
    "465": "बी",
    "466": "बु",
    "467": "बुँ",
    "468": "बु्",
    "469": "बू",
    "470": "बृ",
    "471": "बे",
    "472": "बेँ",
    "473": "बै",
    "474": "बैँ",
    "475": "बैं",
    "476": "बो",
    "477": "बौ",
    "478": "बौँ",
    "479": "बौं",
    "480": "ब्",
    "481": "भ",
    "482": "भँ",
    "483": "भं",
    "484": "भा",
    "485": "भाँ",
    "486": "भि",
    "487": "भिँ",
    "488": "भी",
    "489": "भु",
    "490": "भुँ",
    "491": "भु्",
    "492": "भू",
    "493": "भृ",
    "494": "भे",
    "495": "भै",
    "496": "भैँ",
    "497": "भैं",
    "498": "भो",
    "499": "भौ",
    "500": "भौँ",
    "501": "भ्",
    "502": "म",
    "503": "मँ",
    "504": "मं",
    "505": "म़",
    "506": "मा",
    "507": "माँ",
    "508": "मां",
    "509": "माो",
    "510": "मि",
    "511": "मिँ",
    "512": "मी",
    "513": "मु",
    "514": "मू",
    "515": "मृ",
    "516": "मे",
    "517": "मेँ",
    "518": "मै",
    "519": "मैँ",
    "520": "मो",
    "521": "मौ",
    "522": "म्",
    "523": "य",
    "524": "यं",
    "525": "यः",
    "526": "य़",
    "527": "या",
    "528": "याँ",
    "529": "यां",
    "530": "यि",
    "531": "यी",
    "532": "यु",
    "533": "युँ",
    "534": "युं",
    "535": "यू",
    "536": "यृ",
    "537": "ये",
    "538": "यै",
    "539": "यैँ",
    "540": "यो",
    "541": "यों",
    "542": "योैँ",
    "543": "यौ",
    "544": "यौँ",
    "545": "यौं",
    "546": "य्",
    "547": "र",
    "548": "रँ",
    "549": "रं",
    "550": "रा",
    "551": "राँ",
    "552": "रां",
    "553": "राः",
    "554": "रि",
    "555": "रिँ",
    "556": "रिं",
    "557": "री",
    "558": "रु",
    "559": "रुँ",
    "560": "रू",
    "561": "रृ",
    "562": "रृं",
    "563": "रे",
    "564": "रेँ",
    "565": "रें",
    "566": "रै",
    "567": "रैँ",
    "568": "रैं",
    "569": "रो",
    "570": "रौ",
    "571": "रौँ",
    "572": "रौं",
    "573": "र्",
    "574": "ऱ्",
    "575": "ल",
    "576": "लं",
    "577": "ला",
    "578": "लाँ",
    "579": "लि",
    "580": "लिँ",
    "581": "लिं",
    "582": "लिे",
    "583": "ली",
    "584": "लु",
    "585": "लुँ",
    "586": "लू",
    "587": "ले",
    "588": "लेँ",
    "589": "लै",
    "590": "लैँ",
    "591": "लॉ",
    "592": "लो",
    "593": "लौ",
    "594": "लौँ",
    "595": "ल्",
    "596": "व",
    "597": "वं",
    "598": "वः",
    "599": "वा",
    "600": "वाँ",
    "601": "वां",
    "602": "वि",
    "603": "विँ",
    "604": "विे",
    "605": "वी",
    "606": "वु",
    "607": "वू",
    "608": "वृ",
    "609": "वे",
    "610": "वै",
    "611": "वैँ",
    "612": "वो",
    "613": "वौँ",
    "614": "व्",
    "615": "श",
    "616": "शँ",
    "617": "शं",
    "618": "शः",
    "619": "शा",
    "620": "शि",
    "621": "शिं",
    "622": "शी",
    "623": "शु",
    "624": "शू",
    "625": "शृ",
    "626": "शृं",
    "627": "शे",
    "628": "शै",
    "629": "शैँ",
    "630": "शैं",
    "631": "शो",
    "632": "शौ",
    "633": "शौँ",
    "634": "शौं",
    "635": "श्",
    "636": "ष",
    "637": "षा",
    "638": "षां",
    "639": "षि",
    "640": "षी",
    "641": "षु",
    "642": "षे",
    "643": "षै",
    "644": "षो",
    "645": "षौ",
    "646": "षौँ",
    "647": "षौं",
    "648": "ष्",
    "649": "स",
    "650": "सँ",
    "651": "सं",
    "652": "सा",
    "653": "साँ",
    "654": "सां",
    "655": "सा्",
    "656": "सि",
    "657": "सिँ",
    "658": "सिं",
    "659": "सी",
    "660": "सु",
    "661": "सुँ",
    "662": "सु्",
    "663": "सू",
    "664": "सृ",
    "665": "से",
    "666": "सेँ",
    "667": "सें",
    "668": "सेे",
    "669": "सै",
    "670": "सैँ",
    "671": "सैाँ",
    "672": "सो",
    "673": "सों",
    "674": "सौ",
    "675": "सौँ",
    "676": "सौं",
    "677": "स्",
    "678": "ह",
    "679": "हँ",
    "680": "हं",
    "681": "हा",
    "682": "हाँ",
    "683": "हां",
    "684": "हाे",
    "685": "हि",
    "686": "हिँ",
    "687": "हिं",
    "688": "ही",
    "689": "हीँ",
    "690": "हीं",
    "691": "हींँ",
    "692": "हु",
    "693": "हुँ",
    "694": "हुु",
    "695": "हु्",
    "696": "हू",
    "697": "हूँ",
    "698": "हृ",
    "699": "हे",
    "700": "हेँ",
    "701": "हें",
    "702": "है",
    "703": "हो",
    "704": "हों",
    "705": "हौ",
    "706": "हौँ",
    "707": "हौं",
    "708": "ह्",
    "709": "ॐ",
    "710": "ॠ",
    "711": "।",
    "712": "०",
    "713": "१",
    "714": "२",
    "715": "३",
    "716": "४",
    "717": "५",
    "718": "६",
    "719": "७",
    "720": "८",
    "721": "९",
    "722": "॰"
  },
  "vocab_size": null,
  "add_space_token": true,
  "blank_id": 0,
  "pad_id": 1,
  "unk_id": 2,
  "tokenizer_type": "grapheme"
}